11
02
3D
3E
0F
35
08
39
00
04
06
02
0C
37
01
3D
3D
09
13
3D
03
02
05
02
18
0D
3F
07
36
37
07
08
0C
0A
0A
37
38
3D
10
34
00
0B
00
3B
01
07
0F
05
03
00
33
0C
09
01
04
37
01
09
04
0A
3F
08
0D
3D
0D
09
3D
07
0B
3C
3B
38
01
02
08
02
0F
01
01
01
04
07
15
3D
3C
39
3C
06
16
0D
0B
07
3D
3D
11
3D
09
04
01
38
3A
3A
0A
37
00
08
0C
03
04
0F
04
0A
12
0E
34
02
0D
3C
3B
3D
07
07
08
35
06
0C
11
02
0E
12
3E
0D
0C
04
33
3C
03
3B
0A
07
10
08
07
04
07
0F
0A
05
02
04
03
0D
14
10
18
06
3F
3D
14
06
0E
0E
3D
35
36
39
03
36
3E
14
0C
05
0B
16
3C
13
08
0C
01
07
0A
37
02
04
05
03
06
39
0A
00
0A
07
14
18
03
13
11
06
39
3C
02
3F
07
05
09
0C
0D
0A
02
0A
01
07
04
0C
06
02
14
18
12
06
00
07
0D
0F
11
08
01
32
00
3D
3C
3B
3D
0E
08
10
08
15
05
13
0E
02
04
03
09
00
00
05
09
00
06
34
10
3D
3F
08
1B
12
09
12
0B
3C
35
03
07
03
0A
07
04
0A
0A
10
3B
3D
01
06
03
15
02
01
17
15
0B
07
01
03
09
10
17
05
3F
32
3E
3A
00
3B
01
06
08
14
04
0F
04
0F
11
02
08
04
0C
3E
3E
07
0D
02
02
33
0A
09
34
08
16
0F
09
11
0C
3A
35
04
3F
00
06
08
00
03
09
0D
3B
36
03
07
07
0F
01
37
1C
12
07
03
38
02
3F
17
16
02
00
3A
39
01
05
3B
00
03
0C
11
07
0E
3F
05
0F
02
09
07
05
00
3A
0A
0D
0D
01
37
06
11
36
01
3F
03
00
01
09
37
02
3C
00
01
05
3A
13
3B
3A
06
34
0A
0E
05
38
3F
11
07
00
3C
03
02
3B
38
3F
09
04
0D
0F
05
36
34
06
36
06
06
02
36
3F
05
0F
01
3A
00
33
00
00
38
3F
05
00
3E
2F
09
3E
07
0D
03
3E
0F
03
0A
07
3C
33
04
07
01
0A
3D
0B
02
38
11
3D
0C
08
07
3E
3C
0D
11
39
04
0A
05
3E
3A
0B
3D
02
0C
07
04
34
33
08
38
06
08
10
04
00
12
04
07
06
09
31
3F
06
38
01
0C
0B
3E
35
39
06
07
06
02
3F
13
03
10
0C
3F
33
04
09
3D
0D
3F
0E
0B
3C
12
3E
10
3E
11
3A
07
0C
0E
3B
08
11
02
3F
3C
0D
39
01
0E
04
04
3F
34
3E
33
01
10
07
01
06
1D
3C
0F
05
0B
3C
3F
05
34
02
11
0A
00
3D
34
07
00
07
09
3F
18
06
12
0C
02
36
08
05
3B
0D
3D
06
09
3A
15
39
09
3B
0B
3A
13
0F
08
3E
0E
16
04
3D
3E
08
3C
0A
0E
01
04
3B
36
3B
3D
3B
0E
03
09
0A
19
3C
06
04
0B
01
3E
06
33
00
13
0A
3D
3E
31
0E
02
00
01
3F
15
0A
12
03
3A
31
0A
06
06
0C
00
01
0B
3A
14
3B
06
3A
09
3C
14
0D
07
35
08
10
03
37
00
3E
02
11
0C
08
04
00
37
01
3F
03
0F
08
0B
04
11
01
08
03
07
06
03
02
35
3F
15
03
3B
37
36
09
05
36
00
3D
15
0B
12
09
35
32
09
00
04
07
02
06
0C
3F
11
38
00
00
05
3D
12
10
3B
33
01
0A
02
3A
02
36
07
14
05
0A
07
39
3F
05
06
3E
09
06
09
02
0C
00
04
05
3D
08
3E
3C
38
3B
12
07
0B
3A
39
06
0F
38
3F
3A
03
32
0B
07
32
03
35
04
03
05
36
0D
3F
31
03
32
0E
0D
03
3A
3F
00
05
00
3F
04
3F
3F
32
00
0F
08
09
07
02
35
37
01
37
3D
06
04
38
3C
05
06
09
3C
01
38
38
05
34
3C
3D
05
00
39
09
3E
01
07
00
3D
13
35
0A
05
38
3A
3D
09
3D
09
36
0B
3D
37
06
3A
0F
07
06
3D
3E
3A
0E
37
05
0A
00
3E
39
0C
04
04
08
3C
05
35
36
3E
3B
05
09
0C
01
02
0E
3E
0C
06
06
3A
37
0A
3C
02
0A
09
3C
3A
38
06
02
01
0D
38
14
3C
0F
07
3A
3E
3E
04
3D
0F
39
10
02
38
0C
3A
0A
3A
0E
36
09
00
05
37
06
12
3C
3F
38
0E
3E
03
0B
3C
09
37
3C
3B
35
04
09
09
02
01
19
3C
05
06
0C
3F
3A
08
33
01
0F
07
3F
3D
36
09
00
07
07
3F
13
38
12
09
3D
3B
3B
03
3B
0A
3A
04
0A
36
09
35
0E
36
0F
37
0C
02
09
38
0C
17
3F
35
3C
08
3C
0E
05
3F
0A
38
36
3A
3A
3B
0C
0A
00
08
18
3C
0A
0E
0C
02
3B
07
36
06
0D
0C
3E
39
39
07
00
3F
04
3E
14
3D
13
03
39
37
3C
03
01
09
3A
04
07
3C
11
38
09
37
0D
3D
13
3B
07
37
04
12
00
34
39
3D
01
10
06
3D
07
3D
39
33
00
00
0B
01
03
03
12
3D
0B
08
0D
05
34
02
36
3D
0E
06
00
37
3A
06
05
01
04
39
14
01
13
04
32
34
3A
3E
05
09
3C
02
09
3B
0F
37
3F
3D
07
3E
13
3C
3A
33
3F
0A
3E
38
38
37
03
15
3D
3E
05
3D
3E
3B
09
3D
03
3D
03
04
0B
3C
03
02
09
0A
37
02
39
3B
06
09
0C
33
36
04
05
38
3E
36
0C
37
09
3F
31
01
32
06
03
08
2E
11
3C
33
05
35
11
09
06
35
3E
3E
0A
3E
39
00
00
3F
2F
3C
09
06
06
09
07
35
38
02
33
3C
00
3E
3C
3B
04
08
0A
3F
02
38
3C
03
3A
3A
01
08
39
3D
07
3E
00
06
05
35
12
39
0C
3F
36
3D
36
0A
3D
0A
2E
12
3A
35
0B
3D
0A
07
09
35
01
01
06
36
3F
09
02
38
33
0A
01
09
0A
3F
0B
35
3A
3F
38
00
06
08
01
3C
0F
3E
09
04
07
01
36
08
38
3E
09
12
3C
38
37
04
02
01
0F
39
0E
3B
13
05
38
00
3D
02
00
09
30
0C
03
38
0D
36
0B
39
0C
3A
0D
02
07
39
03
11
3D
37
34
0D
3D
0E
09
3D
09
34
39
3F
38
3F
01
02
00
01
10
38
07
02
05
01
37
0B
33
00
0C
0B
3D
3A
34
06
00
3F
08
35
11
3B
0C
0B
39
38
38
01
3E
0E
32
07
04
35
06
3A
0E
39
0C
33
0D
01
09
37
08
13
3C
35
36
01
3D
0B
09
02
0A
35
3A
00
00
3D
05
3A
3F
06
0E
3A
09
03
09
02
3A
0B
37
03
09
09
3B
3B
33
03
00
03
09
38
10
3A
0D
07
39
3C
36
3C
04
0B
34
06
06
38
09
3F
0D
39
03
37
0D
00
03
3B
01
10
03
35
39
01
00
0B
01
00
08
33
3A
3D
01
3D
03
00
3C
03
12
3F
03
05
0A
07
36
08
37
02
05
0F
3E
39
35
04
06
00
05
32
12
38
0E
04
35
37
32
3A
06
0B
33
04
05
34
06
38
04
38
01
34
12
3F
3D
3A
35
07
3B
35
35
39
3C
15
36
02
03
38
3D
3D
05
3A
02
3D
3C
01
0C
3F
06
3F
0F
0D
38
04
33
39
03
0C
06
3D
37
02
05
01
01
35
01
39
07
3C
2E
07
31
04
04
06
2F
09
3E
39
3D
35
0D
01
00
35
04
3E
0A
3D
32
05
04
00
33
3C
09
0B
02
08
0A
36
3B
04
36
3C
00
3B
3E
38
00
09
02
05
01
36
36
01
3E
33
01
0D
38
39
05
3A
06
02
04
38
10
36
0D
39
35
3F
36
09
00
00
2D
0A
3A
36
06
3A
12
03
06
39
06
00
03
3E
3A
07
05
3C
34
04
02
3F
01
3E
07
37
3E
02
37
3B
3F
03
06
02
0C
3A
06
02
05
03
35
08
39
3E
0A
11
3D
36
39
3F
00
03
0E
35
11
38
0F
3A
36
00
38
3F
02
0D
2F
09
3E
37
0C
33
0B
35
0A
34
0B
01
0C
39
39
09
3F
3E
33
09
03
05
01
01
07
36
3B
3F
3E
3C
3E
3F
07
00
0E
3D
07
3E
08
06
36
0A
34
3E
0C
0C
00
3B
36
05
00
04
0E
37
0D
39
0E
06
38
3C
36
39
05
0A
30
05
3C
33
0B
3A
05
34
0D
33
0E
02
09
3D
01
06
3D
37
33
02
3D
0E
02
01
07
3A
3D
02
3C
3B
3E
00
3E
05
0D
3D
05
3F
05
08
3C
08
39
39
0D
0F
36
3E
37
02
00
01
08
39
0B
38
0F
07
38
3D
3A
3B
05
11
2A
04
05
2F
09
38
08
39
05
34
0E
3D
08
3B
00
08
3C
3D
35
01
3C
0A
05
06
04
38
38
04
03
36
03
3E
3B
3F
0D
03
05
03
0C
09
36
08
38
03
08
0B
3F
3E
39
05
05
05
0C
34
09
31
14
3C
2F
39
2F
37
0A
06
30
04
05
37
08
39
06
35
3F
37
0E
00
00
3B
39
08
34
37
35
02
3F
13
3D
04
3F
3E
36
05
3F
3B
00
3A
3B
00
09
02
3F
03
06
08
3B
04
39
3B
05
0C
0A
3F
3A
3F
08
07
04
35
04
35
09
32
2D
09
34
03
0A
05
2A
02
3F
3D
3D
34
0A
01
01
38
3F
3D
06
37
2D
05
03
3F
36
35
0C
0D
08
0F
04
37
03
02
39
3C
3C
34
00
3A
3E
0C
3B
05
03
3C
3B
3B
37
30
0E
11
3A
3C
06
31
08
3C
06
33
0C
37
0C
34
31
3D
38
09
0D
04
31
0C
3E
37
03
3A
0F
3E
04
3B
06
01
05
3A
38
06
08
3E
37
09
05
03
0F
00
03
39
3C
01
36
3F
3C
00
03
3F
07
3F
09
04
0A
03
3E
04
3B
3C
13
17
39
3F
33
3F
07
02
12
34
0A
39
12
33
34
3A
3C
01
3F
09
31
0B
3A
3A
08
36
10
30
06
3E
09
04
0B
39
3A
05
03
3A
34
03
06
07
0B
01
07
37
3E
3B
3C
3D
3D
01
04
05
11
3E
0B
02
07
08
03
06
35
3B
16
13
3B
02
35
02
0B
00
12
35
0C
35
10
05
33
00
35
3E
04
0D
32
08
01
33
0C
39
05
30
04
3A
11
00
07
04
3F
07
05
37
39
3C
3F
0A
10
06
06
3B
3E
3D
3C
3B
3F
3C
3F
0B
11
03
0A
01
03
13
00
0D
37
3A
15
0D
3E
03
39
0A
05
06
0D
34
08
33
0B
05
31
3E
37
36
01
0C
2E
07
03
2F
09
3B
09
33
03
3A
11
3A
08
04
01
02
02
3A
3A
3E
00
10
0B
02
04
3A
3A
02
01
34
3C
3E
3C
01
0E
03
05
07
05
0B
3D
01
34
03
0D
0C
03
3F
37
0B
0B
0C
07
31
05
2B
13
3C
31
3E
30
34
0A
07
34
05
03
33
04
3C
06
34
3D
3F
0D
3A
03
3C
36
05
38
3B
34
38
02
13
0A
0A
3E
02
39
05
00
34
3C
3A
3A
3D
07
05
3C
04
3D
09
04
3D
36
39
0E
0B
04
00
3C
39
10
0E
07
00
01
3E
3C
3F
02
3E
00
01
01
00
03
3E
3D
3F
04
3F
3F
00
00
00
00
00
3D
00
01
3E
00
3F
01
3E
00
3E
3F
00
00
3F
00
3F
00
00
00
02
01
3F
00
3F
3D
02
01
3F
00
00
00
00
3F
3E
3F
03
00
02
01
01
01
00
3B
00
3C
3F
01
02
03
3F
00
02
02
3F
3A
00
00
3E
3F
00
00
3E
3F
3F
3F
00
00
3D
00
02
04
3F
00
3F
3F
01
00
00
00
00
01
03
00
3F
01
02
3F
3F
3E
3F
00
03
3F
3F
3E
01
00
00
00
02
3F
3C
00
00
3F
3E
3D
3F
3F
00
00
00
02
01
03
02
01
3F
00
3F
00
00
01
00
3F
00
3D
3F
00
3F
3F
3F
01
02
3F
00
00
3A
00
01
01
3F
3F
3E
01
01
3D
02
3F
3F
3F
00
3F
00
01
01
3F
3D
3F
03
00
00
00
01
3F
3F
00
01
01
3F
00
02
3F
00
02
00
3F
3F
3E
00
01
01
00
3F
00
01
02
3F
00
01
00
00
00
3E
01
00
00
00
00
02
3F
3F
00
00
00
00
3F
3E
3E
00
00
3D
3F
3F
02
3E
01
3F
01
00
00
3E
00
3F
00
01
3D
00
00
00
3F
00
02
02
05
01
01
3D
02
00
00
3E
00
01
3F
01
02
00
00
00
02
00
01
3F
3F
00
01
01
01
02
3F
3F
00
03
3F
01
00
03
00
00
02
3D
3D
3F
05
00
3F
00
00
00
01
3F
04
01
00
01
3F
01
00
02
3D
01
3F
01
00
3D
3F
01
0B
01
01
00
3D
00
3F
01
3F
01
3F
03
04
3F
02
3F
3E
00
00
01
00
00
00
02
3F
01
00
3F
01
3D
01
01
02
00
3E
01
00
3F
3F
3F
00
02
00
00
02
00
3C
3E
3E
03
3F
00
3D
01
01
00
04
3F
02
03
3F
3F
01
06
3F
03
3F
02
3D
03
04
3F
00
00
02
3F
3B
01
39
01
3F
00
38
03
00
04
3E
3F
00
38
01
00
00
00
02
3F
3F
3F
3F
01
03
02
02
04
3E
02
03
3D
00
3F
3C
3F
01
3E
04
01
00
00
3E
3F
3F
00
01
3C
00
00
00
02
3B
03
3E
01
00
02
02
00
03
00
00
3F
3E
05
3A
3F
3F
00
3F
04
3F
04
00
01
3F
3C
00
01
3F
3F
3F
02
3F
3E
3F
00
02
01
00
01
3C
3F
02
3E
3F
00
3E
3B
3F
01
02
3E
01
01
3F
00
3F
02
02
3E
3F
01
3F
00
3F
02
3F
3F
00
00
3F
01
03
3E
00
00
3E
03
00
00
00
02
3F
01
3D
00
3F
3E
3F
3F
02
03
3D
00
01
01
00
00
3F
01
3F
3F
3F
00
3F
00
3F
3F
00
01
3F
3E
00
3E
3E
3E
03
3F
00
00
01
00
3F
3F
3F
02
00
00
00
3E
00
00
00
00
00
3F
3E
00
02
03
3F
01
01
01
01
00
3F
3E
3F
3E
01
3E
01
00
00
3F
3E
05
3F
3E
03
00
00
01
3D
3E
3D
01
00
01
00
00
01
3F
01
00
01
00
00
3F
01
3F
01
01
3E
3E
3C
3F
3D
01
02
01
01
3F
01
01
00
3C
00
3D
00
3F
00
00
01
02
01
3C
02
00
02
3D
00
3F
03
3D
01
02
3F
00
01
03
00
01
00
3F
00
00
00
3E
3F
03
03
01
00
01
02
00
01
03
03
01
03
02
01
00
00
01
01
3E
3A
00
3E
3E
00
3D
04
3F
01
01
3D
3F
3C
01
00
00
3F
04
03
3F
01
3D
05
01
01
3C
01
3E
05
3E
02
07
3F
3F
02
04
02
01
00
02
02
01
3E
3E
01
3B
01
3E
3F
01
01
3E
06
01
00
00
02
00
3E
00
03
00
02
3F
3C
00
00
3F
3F
05
00
06
01
3E
3F
02
03
3F
01
00
34
00
3F
04
37
02
3F
3E
32
01
00
12
3F
02
3A
3E
01
01
3F
00
00
00
3D
3F
01
01
03
01
00
3F
00
00
00
01
3D
00
37
3F
00
3F
01
00
02
00
3F
3F
3F
03
02
3A
00
00
00
03
3A
3D
00
3E
01
02
3F
3F
03
3F
3E
3F
01
01
3D
3F
3F
3E
39
3F
3F
0D
00
03
3F
3E
01
01
01
3E
01
3E
3F
3D
3E
03
3F
00
02
3F
3E
3E
02
3E
3F
02
3D
3E
00
3E
3E
02
02
02
00
00
02
00
02
3D
00
02
00
01
3E
3D
00
3F
3E
00
3E
00
3E
00
00
3F
3F
3E
00
01
01
05
01
01
3E
00
00
01
3F
00
3E
01
00
01
00
3D
01
00
3F
03
3E
01
3F
01
3E
3E
00
01
00
00
00
3E
3F
00
01
01
00
01
3F
00
02
3C
3F
3F
01
02
00
02
00
3E
00
00
3F
04
01
00
3D
00
00
01
3F
01
00
3F
01
01
01
3E
00
01
01
00
00
00
3E
3E
3F
01
00
00
03
3E
00
01
3D
01
3E
01
00
00
3B
01
00
00
3F
01
3F
3F
04
00
00
3D
01
01
01
3E
01
3F
3F
00
02
00
01
3E
3F
00
05
02
02
00
3F
3F
3E
04
01
3F
00
3A
04
00
04
3F
01
38
04
3F
02
00
3F
3F
00
01
00
01
3D
00
01
3E
01
3D
3E
00
01
00
00
01
01
00
03
04
04
00
03
04
3B
00
01
00
01
00
09
01
3C
3E
00
3C
02
00
00
00
09
00
3F
02
3F
3F
01
03
03
3C
01
3F
02
00
08
01
00
33
02
3C
08
01
00
3F
01
00
00
01
3E
00
06
00
02
3F
3F
3F
3E
3C
01
3E
01
3F
06
02
0C
00
3A
05
3F
3F
02
3F
01
3D
3F
00
3E
00
02
05
33
04
3E
3E
02
3E
00
01
01
02
3B
00
3F
07
01
03
01
3F
2B
3E
01
0B
3F
01
02
3F
02
00
00
3F
00
00
3F
00
00
3F
01
00
02
3C
00
01
00
02
3C
01
36
3C
3C
3F
0F
3F
3F
00
3B
00
3E
00
00
33
3F
02
00
01
3F
3F
3F
3F
3E
03
3E
01
03
3F
01
00
01
04
3D
03
3F
3F
37
03
3F
07
3F
01
00
3E
02
01
00
3F
01
00
3F
01
00
01
3F
3F
00
3E
3F
00
02
00
3E
00
3E
3E
3F
3D
09
3F
01
02
3E
00
00
00
3E
01
3E
02
3F
02
3E
3B
00
00
3F
00
3F
02
01
3E
00
3F
3E
03
01
05
01
06
3F
00
3D
3F
00
3D
00
3F
3E
02
01
00
02
3C
02
3F
3F
01
3D
02
01
01
3E
3F
03
3F
3F
01
3F
3F
3E
3F
3F
3D
01
00
00
00
01
01
3E
3D
3D
02
00
03
00
3E
01
00
01
3F
00
00
3C
3F
3F
3E
3F
00
00
00
01
03
01
00
3F
3C
01
3F
00
00
01
3F
3F
3F
01
3E
01
00
00
02
01
02
02
01
00
02
01
00
01
3F
00
00
3F
00
3D
3E
3B
01
01
02
01
3F
01
3F
01
3F
00
01
01
3D
3F
01
00
3E
04
00
00
00
3F
02
01
3D
01
3E
03
3F
00
01
01
35
00
00
02
01
3E
3F
00
3F
00
00
3E
3F
01
3F
3F
01
3F
06
00
3E
3E
03
01
02
03
03
05
00
35
03
3B
01
03
00
00
3E
03
3F
01
3E
3E
3E
3F
3C
00
00
06
3E
3F
3E
00
01
04
3F
02
3E
3E
3E
01
00
00
00
01
2E
00
02
3F
04
3E
3F
3E
01
3E
00
3F
00
06
00
3F
3F
3E
02
03
3D
01
01
03
3E
0E
04
1B
00
32
04
3E
3F
01
00
00
3C
3F
00
02
00
02
3C
3E
02
00
00
02
01
03
3F
00
3F
03
00
02
02
3B
00
00
00
09
3F
00
03
3D
00
03
03
00
3F
01
01
00
00
3F
3F
01
01
00
00
3F
3E
3C
00
3F
3C
3C
00
3A
3D
00
01
03
3F
06
00
3F
3E
00
02
01
3E
3F
01
00
00
3F
01
00
3F
3E
01
00
3F
00
3F
03
00
01
3F
3F
02
00
00
3F
3F
01
3E
3F
02
3F
02
00
02
3F
00
00
3F
00
00
00
02
3F
01
3E
00
3E
3F
3F
3B
3F
00
3C
3E
01
3C
08
00
01
01
00
3F
00
01
03
00
3E
01
00
01
00
00
00
00
00
01
00
01
3F
3E
02
3E
00
3E
01
01
01
01
00
00
00
3E
00
00
3D
3E
02
00
3F
00
3F
3E
01
02
00
00
01
3F
3F
3D
3F
00
02
3F
00
3F
3E
01
00
3F
01
3F
01
3F
00
01
3E
01
3F
3D
01
3E
01
3F
00
05
00
3F
00
3E
00
00
00
3F
01
3F
3F
3C
01
3F
01
3E
00
01
00
01
02
3F
3F
00
01
00
02
3F
3E
3F
01
3F
00
3F
02
3F
01
02
00
00
03
3F
00
00
01
02
00
00
00
3F
01
02
02
02
00
00
01
00
01
00
00
3F
00
3D
00
01
00
01
01
3E
00
00
3F
01
00
01
00
00
00
3D
02
02
01
3C
06
3F
03
01
3F
00
00
00
00
01
01
3D
03
3F
00
00
01
01
02
01
00
03
00
3F
05
02
04
00
00
3E
00
00
01
00
01
01
01
3F
02
00
3E
00
01
3F
01
00
3C
02
3C
01
00
00
01
03
01
3C
3F
00
3F
02
3E
3D
01
00
00
02
00
01
00
3F
3F
02
00
01
3E
01
03
3F
00
3F
01
00
06
3F
3E
01
01
00
10
02
08
01
3D
02
3F
00
03
3F
00
3E
3C
01
03
00
00
00
02
04
01
00
00
3F
01
3E
3F
00
07
3E
00
01
02
00
01
00
3E
00
3F
00
3F
3F
01
3F
00
00
3C
00
00
3D
01
00
00
3F
00
01
3F
03
3D
01
01
01
00
00
3F
00
3E
00
3F
03
02
00
3A
00
00
01
02
3E
01
01
3F
3F
3F
00
02
00
3F
01
02
01
00
00
03
00
00
01
3E
02
3F
3F
3E
3F
00
00
3D
02
3E
00
00
00
3E
00
01
3F
3F
00
3E
3F
3F
01
3F
3E
00
01
00
3C
3F
00
00
00
3F
3B
00
3F
01
00
3D
3F
3E
03
03
3E
00
01
3E
3D
3F
00
00
3F
3F
3D
02
00
00
3F
04
00
02
3F
3F
03
01
02
3E
3F
01
00
3F
00
3E
3F
01
3F
00
01
02
3E
3F
03
3F
3E
3F
02
3F
3F
3F
00
01
3F
00
3E
01
3F
3F
3D
3F
3F
3F
01
00
00
00
02
02
3D
00
3F
00
02
00
3C
00
00
00
3F
01
00
00
3E
00
3F
3F
3F
3F
00
02
00
3F
3F
00
01
04
3F
3F
01
01
00
3F
01
01
3F
00
01
00
00
01
02
02
3E
00
00
02
00
00
00
02
01
3E
3F
01
00
3D
01
02
01
00
02
00
00
02
00
00
00
01
3C
00
00
3D
3F
3F
3F
3E
01
3F
3E
3E
3F
02
3F
02
00
02
00
00
01
05
01
01
01
3E
00
00
00
00
01
00
00
00
00
00
01
00
00
03
01
3E
03
00
3F
02
00
3F
01
00
00
3E
00
02
00
00
01
3F
03
06
00
3E
3F
3F
3F
01
01
3F
01
3E
3F
01
01
3E
00
02
3C
01
00
01
3F
3E
3D
01
3E
01
01
3F
00
3F
3F
05
02
01
01
3F
00
01
00
00
3F
00
3F
06
3F
3F
03
01
01
01
00
3F
05
3F
02
00
00
06
00
00
3E
3D
01
00
3F
00
3F
01
3F
02
00
00
02
3F
3F
3E
3D
3F
00
01
00
3E
02
3C
01
00
3F
04
00
00
00
01
3E
3F
3F
39
02
01
03
01
3E
3F
3D
01
00
3F
00
39
04
02
01
01
00
00
00
01
3E
3F
3F
00
3F
3F
00
01
01
00
00
00
00
03
3F
35
02
39
00
3D
01
03
08
01
01
02
3E
3B
02
3E
00
3B
3E
00
01
0A
00
00
01
00
3C
3F
3F
3B
3E
09
3F
01
01
3F
3B
00
00
01
00
03
01
3F
3E
3E
02
3D
05
3F
3F
3F
01
05
01
00
00
02
01
3F
3D
3C
3E
04
00
32
01
3C
01
3D
3F
02
3B
03
00
3E
3E
3F
01
3A
01
37
00
00
00
3F
00
3D
01
00
3F
04
08
09
3E
08
3C
3E
02
3C
02
01
04
04
01
2C
3E
02
3C
3C
03
3D
00
3F
3C
3F
3C
04
0B
00
3F
02
3F
00
3E
04
01
39
00
39
02
3F
39
3B
00
3E
04
3E
00
02
3E
3B
03
3B
02
36
01
3F
01
3D
00
3D
00
00
3E
04
06
00
02
00
3C
00
03
01
02
3F
05
02
3F
36
00
01
3C
3B
06
3B
3F
00
3D
00
3F
3C
04
00
3E
08
01
01
3E
06
00
3B
01
33
3F
3F
3E
3E
01
3D
3A
02
03
01
3F
3C
02
3B
02
3C
02
3F
3E
3E
3F
3A
00
00
3E
00
3C
01
3E
00
3D
3E
03
02
3D
05
06
3F
06
33
05
00
3E
3D
03
3D
3E
3F
3E
00
02
01
02
00
01
07
03
02
3E
01
03
04
00
34
00
01
3D
00
3F
3B
02
00
01
00
01
3C
00
3E
02
04
3E
3E
01
00
01
03
3F
01
3B
3E
00
01
06
00
00
01
3C
00
02
3C
00
00
00
00
04
00
03
3F
3F
3E
01
05
01
00
00
3E
3F
00
00
04
3F
3F
3B
3E
03
04
3E
03
01
03
01
3F
01
01
3F
3F
3E
01
00
3D
00
3B
00
3C
3F
01
3F
00
00
01
3F
3F
00
3F
01
01
02
00
01
02
00
3F
3F
01
01
00
01
3C
02
00
00
03
02
3D
03
3F
3B
3E
3F
00
02
3F
01
3F
02
00
3F
3E
01
01
02
3B
00
3E
02
3D
00
3C
3B
01
02
3B
3F
3B
02
3C
00
3D
00
00
01
02
00
00
00
3F
3F
01
01
3E
01
03
01
3F
3F
01
00
03
3F
04
01
3E
3D
00
3F
3E
02
00
3F
01
3F
00
3C
03
3F
3F
00
3F
00
01
00
3F
01
01
3F
3E
03
3D
3F
3F
00
01
38
04
3C
01
3E
3D
03
3E
01
3D
01
00
01
3C
01
3F
01
00
3F
01
3D
3B
3E
06
03
00
3F
39
3B
00
02
02
3D
3D
3F
01
3F
3D
02
3E
01
01
3D
00
3D
03
05
3E
00
3E
01
3F
3F
3E
00
3F
3F
3E
01
3F
3E
3F
3E
02
3F
02
3E
3F
3E
3F
01
3F
02
39
04
00
02
3E
3F
3F
3F
00
3F
3F
3E
3F
3B
03
3F
3E
03
3F
3E
3E
00
01
39
3E
39
04
3C
3F
06
3F
01
00
3D
00
3E
01
00
3F
3D
00
02
3F
3F
3E
06
02
3F
3D
02
00
00
3C
01
01
3E
01
3E
00
3D
3F
01
3F
03
3E
04
00
00
3F
3F
3E
3E
00
3F
3F
04
02
03
00
3F
00
05
3E
3E
00
01
3E
04
3B
00
02
00
3F
02
3F
3C
3F
00
00
00
00
06
01
01
3F
00
02
00
00
01
01
01
3B
3F
3F
3F
3E
3F
3F
01
3F
3D
3F
00
3E
00
00
01
3D
3F
3F
02
00
3F
3D
00
01
3B
3E
02
01
00
3F
3F
01
3E
3F
00
3B
01
3E
00
3F
02
01
00
00
3F
01
02
3D
3F
01
03
00
3E
01
00
01
3C
02
00
3F
00
03
3D
01
06
3F
01
3F
3E
00
3E
01
00
00
3F
3C
00
00
3F
3F
3D
00
3D
01
3E
00
3F
00
01
3F
01
00
00
01
3F
3F
3F
00
3F
02
3F
3E
00
3F
00
00
00
3F
02
00
3F
00
39
01
01
3F
3F
3C
01
3F
00
3E
3F
00
00
01
02
01
01
3F
01
01
3E
02
3D
01
00
3E
00
3E
00
00
02
3F
00
00
3F
00
02
00
3E
01
00
00
3D
01
00
02
01
3F
3F
3E
02
00
3E
00
01
3E
00
3E
00
01
00
00
3F
00
3F
00
3E
04
00
3E
00
3F
01
01
3D
3E
02
00
3E
00
00
00
00
00
00
02
3E
01
3F
3F
00
3E
01
3F
06
3F
01
01
00
3E
3E
01
02
03
01
3E
3E
00
00
06
06
3E
04
3E
3F
3E
01
02
01
01
3E
3D
01
3F
3A
00
01
3F
3F
00
3C
01
00
3E
00
3E
02
02
3F
3F
06
01
3F
00
07
01
00
00
01
00
00
3B
3D
01
3E
00
03
3F
00
3F
0E
3F
00
3F
00
01
3E
01
00
3E
00
3D
3A
05
3F
01
3F
3D
00
3F
3E
03
3B
00
3D
01
3E
00
3A
00
01
3F
3D
3F
3D
01
3D
3F
01
3C
01
02
00
3F
01
02
02
00
00
01
3F
3E
02
00
3D
3F
01
00
3F
01
00
00
02
3D
03
3F
01
00
00
3F
39
01
00
3F
00
00
3E
02
01
3F
04
3F
3D
00
03
3F
3B
3E
01
02
3D
00
3C
01
02
3D
3F
01
3F
02
00
00
3E
3D
3F
3F
00
3F
00
02
3F
3F
03
00
01
3D
02
00
3F
00
3F
3F
02
00
3D
01
03
3F
3D
00
01
00
3E
03
3F
3F
01
3F
01
00
03
03
3F
01
3F
00
01
01
02
3E
01
03
02
02
01
02
3F
3E
3E
3E
00
01
00
02
3E
3F
3E
02
03
3E
00
00
3E
3E
3E
3F
03
00
00
3E
3E
03
00
02
01
01
00
3C
01
03
3E
01
00
05
00
01
3D
02
3F
00
00
02
00
01
00
01
3E
3F
03
02
00
00
00
3E
00
01
00
00
00
00
01
01
00
00
00
02
3F
00
01
00
01
00
01
02
02
03
3D
01
00
01
3C
00
00
3F
3E
00
00
3E
01
02
00
3E
01
02
3B
00
01
04
01
3F
02
02
3F
3F
02
01
00
3E
00
02
3E
01
05
3F
3E
3F
01
3F
00
00
01
3F
3F
00
00
02
3F
01
3D
00
3F
03
3D
3E
00
00
00
00
3E
3F
3D
00
00
01
3D
00
02
3E
3F
00
00
3A
00
01
02
3F
01
00
03
01
01
3F
3F
01
00
01
00
03
03
02
3E
02
00
3F
02
01
01
3E
3F
3B
01
3F
02
00
02
3C
3F
00
3C
01
02
3F
00
00
3E
00
3B
3F
01
3F
3E
3F
00
3C
3E
3F
01
01
3C
01
3F
01
3F
01
3F
3D
3F
01
3F
00
3F
3F
3D
01
02
01
01
02
03
00
3D
01
03
00
3E
03
3D
02
06
3E
05
00
3E
02
3F
3D
3E
01
03
02
3E
01
3D
00
02
00
3F
01
3F
01
00
3E
3F
3C
3F
3E
01
02
3B
3F
00
00
3C
00
00
3D
04
3E
3F
01
01
3E
01
03
3F
3F
01
00
3F
02
01
00
04
00
3D
01
03
3D
00
03
3D
03
01
04
01
00
3F
3C
3F
01
3F
01
00
04
00
01
3D
02
02
02
3F
3F
00
00
00
3E
00
01
3E
3F
01
01
00
3C
3F
00
00
01
00
00
02
3D
00
01
00
00
3E
00
3F
00
02
3F
3F
02
3E
00
3D
04
3D
3F
02
00
01
03
3F
3F
00
3F
3F
01
3F
3D
3E
3F
3F
00
03
03
00
01
00
3F
3D
02
00
3F
01
00
01
3F
3E
01
00
03
02
03
02
00
3E
02
3F
00
00
02
3F
3E
01
00
3E
3F
01
3E
02
05
3F
01
03
3B
00
00
3F
02
3F
3F
3E
00
01
00
3F
00
3E
3F
3E
00
00
02
3F
3F
02
3F
02
3F
3E
00
00
03
00
00
02
03
3F
01
3F
01
3F
01
00
00
02
00
3F
00
3F
02
3F
02
01
00
01
3D
00
3F
01
00
00
3F
3F
02
3D
01
00
02
00
00
3F
01
3F
01
01
01
03
3E
00
00
3A
00
01
3F
3F
02
3F
01
04
00
01
3F
04
00
00
03
00
3F
01
00
00
00
3E
00
01
00
00
00
3E
3D
3E
03
00
01
01
02
02
3F
00
3D
01
00
00
01
01
3B
00
00
3D
01
01
00
00
01
3F
03
01
01
02
04
3C
00
3E
3D
00
01
01
3F
00
3E
3D
02
02
01
01
3F
02
02
3B
03
00
00
02
00
3E
3B
3F
00
00
3E
3F
02
02
3F
38
04
3E
00
3D
00
00
02
3E
02
01
3F
01
3F
02
03
3E
00
3F
00
02
02
02
02
3F
04
01
01
04
02
3C
3E
3F
3E
01
00
01
00
00
00
3F
01
02
01
04
01
3F
00
3F
03
02
00
3F
00
00
03
04
3F
00
3D
00
3F
02
3D
3D
01
3F
01
39
00
00
01
01
03
00
00
02
3D
03
00
00
00
3E
02
3E
03
01
02
00
05
3F
00
05
03
3F
01
3F
3D
03
00
00
03
3D
01
3D
00
3F
01
3E
3F
01
00
3F
00
00
02
00
3F
00
01
3F
00
00
3F
3F
3F
04
04
3F
3C
3E
01
00
00
00
00
00
00
00
00
00
00
00
3F
3F
01
3F
00
3E
3E
3F
00
3F
02
00
3E
3F
00
02
03
00
3D
01
02
3E
01
00
3F
02
3F
00
02
03
3F
04
01
00
03
3F
02
01
3D
3E
00
01
3F
3E
3E
3F
01
02
01
01
00
3E
3E
01
3F
01
01
3F
3E
01
00
3B
01
02
3E
01
03
3D
00
3F
3D
00
02
3F
01
00
00
3E
01
00
02
3F
3E
3E
3E
3E
00
02
01
01
3F
3E
01
00
02
3F
3F
01
00
01
00
3F
01
00
02
3F
02
3F
02
00
00
00
00
00
01
3F
04
02
04
00
3F
3C
3B
01
3F
3E
3F
06
3F
3F
04
3D
00
3F
01
01
01
00
06
3D
01
01
00
02
01
3F
3F
3E
3E
00
01
05
01
3C
01
02
02
00
00
06
00
3F
01
00
01
05
00
01
3F
3A
00
03
02
01
01
06
01
3E
05
00
02
3F
06
01
01
3B
3C
01
01
3F
3D
03
3D
3E
06
3D
02
3E
00
00
3F
00
08
3F
05
3F
02
3C
3F
3F
3D
3F
01
3B
03
00
05
00
01
05
3F
3C
3F
05
3F
3E
02
3F
01
04
00
01
3F
3B
01
06
3E
02
3F
02
3D
3C
04
01
02
3D
02
02
3A
3D
3E
00
3E
02
02
05
05
3E
08
01
04
3E
02
01
04
00
06
01
02
00
3F
3D
00
00
3C
01
00
3B
00
3C
3E
00
02
06
01
00
3F
0D
00
3D
05
3F
01
02
00
01
3F
3E
01
02
3F
00
3F
16
3F
3E
00
3F
02
3E
00
02
3C
3D
3E
3E
3E
00
03
03
3F
3F
03
3F
02
3F
3D
01
00
01
02
02
00
3F
00
00
02
02
3C
02
01
01
00
3D
3F
3D
01
01
04
3C
3E
07
00
3E
3F
00
3F
03
00
01
3D
00
01
3E
00
03
00
0F
01
01
3F
3F
03
01
01
03
00
3E
3D
3F
02
02
3F
02
01
02
3E
3E
00
00
3C
3D
02
01
3B
00
01
03
03
01
02
01
3E
02
01
01
3C
00
3E
3D
3F
00
04
3E
3F
07
01
02
00
01
00
03
00
3F
00
00
3F
00
01
01
01
03
01
00
3F
03
3D
02
3D
3C
3E
01
00
01
02
03
3C
03
3D
02
3C
07
02
01
03
3F
09
02
07
01
00
05
02
3E
00
01
00
3F
03
02
01
00
3E
02
02
02
3C
3F
3F
01
03
02
01
3A
00
3E
3F
3C
02
01
08
03
01
05
3E
3E
3F
00
05
02
3A
00
3B
3E
3C
3F
01
02
3F
02
3C
00
3A
3D
3F
04
06
3E
03
3F
01
00
01
3F
01
00
00
3B
3A
3F
3D
3D
04
01
3E
3E
3E
00
01
3E
00
3D
3D
3E
07
02
00
3E
3F
3C
01
3E
01
00
04
01
00
02
3C
3F
3D
3F
03
03
3E
04
3F
03
3D
3E
01
3B
3A
3F
00
3E
3A
00
3C
02
3D
3F
02
02
3D
01
01
00
00
3F
3D
39
3C
3D
3E
34
3F
3F
3D
02
3D
3D
3D
3C
3B
3D
02
3E
05
06
00
07
00
3A
01
3D
01
01
01
3E
01
02
3D
3E
3C
02
3F
00
3F
02
3F
03
3D
3D
00
01
38
3E
02
3E
3D
01
3D
01
3C
3E
01
01
3F
01
3F
01
00
00
00
3D
38
3E
3E
3B
00
3D
3F
3F
3C
02
3E
01
01
3E
02
3D
03
03
00
03
3F
3F
01
00
3D
03
3F
01
3D
01
3E
3F
3C
01
3D
04
3E
02
3F
00
3F
3F
3C
3D
3E
3F
00
3E
3E
01
3D
02
38
00
00
03
00
01
3F
02
02
01
03
03
01
34
03
3F
04
01
3E
3D
3E
3B
3D
3D
3F
3A
01
3C
07
02
3C
01
3C
01
01
01
00
02
01
3B
3A
00
3E
3F
3E
00
02
05
00
02
02
3E
3A
3E
3C
03
01
3F
3E
00
3F
00
00
01
3F
3F
02
06
02
01
04
00
03
02
04
3F
03
3C
05
00
06
03
00
00
02
3C
3E
01
3F
38
03
3B
03
00
3A
3F
3B
05
3F
04
01
05
05
3E
3C
00
3C
02
3D
3E
02
01
3C
00
00
3E
3C
3F
04
01
01
02
3C
02
3C
02
03
05
00
3F
02
3A
02
3F
02
3F
06
03
01
3F
3D
02
3F
3F
02
00
3F
00
00
02
00
3D
3B
01
3D
3E
3F
3F
02
02
00
3D
3E
00
3F
00
3F
02
3D
03
3E
3F
00
3E
01
3F
3E
3D
3F
09
3E
3F
02
3C
3C
00
3F
3F
3D
3B
3D
03
00
3F
01
3B
3F
3E
00
00
02
00
3C
3D
3C
01
3E
3D
02
00
00
3D
3E
01
3C
3D
3D
3E
38
01
06
01
01
04
3F
00
3F
3D
3E
3F
00
3F
3E
3F
3B
3F
3F
3F
03
00
3F
03
3E
07
00
00
01
3B
38
3D
3F
3D
3D
39
00
01
3E
3A
01
01
3D
3D
00
04
01
00
38
3C
3B
3D
3F
3C
00
00
3E
00
3C
00
3A
3D
3F
3D
00
02
01
3C
00
08
01
3D
00
3D
00
3D
3F
3F
3F
3F
00
3E
00
01
00
00
3F
02
3E
04
3F
02
3D
3D
39
39
01
3C
3D
00
3E
3F
3C
36
00
02
3E
3D
3F
04
01
00
3F
3E
00
39
01
3D
3D
3D
3F
3C
3D
3D
39
3E
3F
3E
00
3E
3F
3F
3F
04
3E
00
00
01
03
3F
3E
3D
3D
01
00
3F
3D
3F
3E
02
00
01
3F
04
3D
3D
3D
3F
3C
3D
03
3F
3F
3D
3F
3D
3E
3B
00
02
3F
3F
3F
07
02
02
00
01
03
3F
02
3E
3D
00
3E
00
02
3D
3E
3F
3E
01
01
3E
02
00
00
03
3F
03
00
05
02
3E
00
3D
3B
3E
3F
01
3E
01
00
06
03
02
00
3F
3B
3C
3C
3F
3E
01
3D
03
3D
3D
01
3E
3C
00
3F
05
01
00
01
3F
08
09
00
01
02
3F
01
3F
02
01
3F
01
3E
3D
3C
01
3F
39
04
3B
02
00
3D
01
3E
02
3A
08
01
00
05
3E
3A
39
3C
03
3E
3F
04
3B
3D
3C
06
3F
00
01
03
02
3F
01
00
3E
3E
03
02
01
00
00
00
3B
3E
34
01
3F
00
01
01
00
3F
01
3F
3D
3F
3D
02
3C
03
3E
3D
00
3E
3E
3F
3F
06
3E
02
3D
3D
3F
3E
04
3E
3F
04
3F
3E
04
3E
3F
3D
3E
02
37
3D
02
00
06
02
3C
3F
00
3C
3F
01
3E
04
3C
01
01
3F
00
3F
3E
3F
34
00
3E
01
3F
3E
00
3F
01
3E
00
00
03
00
04
3F
00
02
3E
00
00
01
00
02
04
02
02
00
01
3D
00
3E
3F
02
3F
00
3F
3F
3B
00
3E
3F
00
3F
04
00
06
02
3B
02
3E
3C
3E
02
3F
3E
3D
00
02
3F
3C
01
05
3E
38
3F
04
01
00
3A
3E
3F
3C
3F
36
3E
3F
01
3A
3D
3F
3C
3E
3F
01
00
00
00
3E
3F
01
3F
02
3C
00
3E
3C
3F
3E
00
3F
04
00
3F
3D
3E
3F
3F
00
3E
04
00
38
03
01
3A
3C
02
02
3F
00
00
03
3E
3B
00
3F
3F
3C
3E
01
00
01
00
03
00
3B
00
3D
3B
3D
3E
3B
3F
03
3C
00
3F
01
05
3E
3F
01
3F
02
01
00
01
01
00
00
3E
00
00
3D
01
3F
04
3A
3F
3E
00
3F
3F
02
3B
03
01
3F
3E
3F
03
01
00
00
00
3C
3D
3A
3E
01
3F
3E
3C
01
00
02
3C
01
02
3F
3F
01
3D
00
3F
3F
02
3D
3D
3D
3D
01
02
00
01
3C
3E
04
00
01
03
02
3F
01
03
3E
01
3A
3C
00
02
00
3F
3E
00
3F
3F
00
3D
01
3F
00
00
3F
3D
01
3D
3E
02
3F
3D
3A
3C
3D
01
38
02
00
03
06
3D
00
3F
04
03
00
01
3F
3C
01
01
3D
3E
3F
3F
3F
03
3F
02
3E
3B
00
00
00
00
09
01
3F
02
3E
3D
00
38
02
01
04
3E
3F
3A
03
03
3C
02
00
01
02
03
01
3E
3F
3E
01
02
3C
00
00
36
39
3F
39
03
3F
3E
05
01
00
3E
00
01
3F
3F
3F
00
3E
01
00
00
3F
3E
01
05
3E
04
3F
3D
3C
3D
04
39
3E
3D
3E
3F
3D
3E
01
3C
3C
3F
3F
02
3D
3F
3F
00
04
03
3F
3C
00
00
00
01
3F
3B
3C
3E
3C
00
3E
3F
3D
01
39
00
3C
00
01
3F
3E
00
3F
3E
03
00
01
01
00
3F
01
05
3C
3D
02
02
00
01
02
02
02
3F
3D
39
3D
3D
3F
3C
01
00
3E
3F
02
3C
3C
3F
3A
3F
3F
02
04
02
3D
3F
3E
00
3D
01
00
3F
3C
3F
3D
3F
3B
00
04
3D
01
3F
01
00
00
00
02
00
3D
3F
3E
3F
3D
3F
3E
3C
3D
01
03
00
04
03
01
00
3E
00
02
3F
00
3C
00
3A
3E
3F
00
03
00
03
00
00
3D
3E
3D
3E
3E
3F
01
01
3D
01
00
3E
3F
00
04
3E
3D
01
3D
3F
39
00
05
3F
3C
3C
00
3E
01
00
05
3D
3D
00
3F
3B
3F
3E
38
3C
01
3F
3E
00
04
01
00
00
00
00
03
00
01
02
01
3E
3B
3E
00
01
3D
04
3E
00
00
3E
3E
00
3E
3F
00
3D
3E
01
00
3E
00
3C
04
00
3C
3F
3E
3D
3D
01
00
3F
3B
3D
02
3E
02
3C
01
00
3F
3E
00
3C
3F
01
3D
3E
3E
3E
00
3F
00
05
3F
00
3E
01
03
3F
3F
3B
02
3C
3F
00
3E
00
3D
02
00
00
01
3C
00
3F
3F
3F
00
3D
00
3F
01
00
02
3E
07
3E
3F
02
3C
04
3D
3E
01
00
35
01
03
05
06
3D
3F
04
03
00
01
04
3E
00
01
00
3D
3F
00
3E
3E
01
3F
3F
00
3C
01
38
00
35
04
01
3F
3F
3E
3C
3D
00
01
3F
05
01
3C
02
3D
02
3E
00
3F
01
02
02
3C
3C
00
3A
02
02
3F
00
02
3E
3E
04
3F
00
00
3B
3A
02
00
3E
00
00
3F
3F
01
02
01
3F
3D
05
3F
02
01
09
3E
02
01
00
02
3A
04
3E
00
3D
00
04
01
02
04
3D
01
03
3F
3E
3C
01
3F
02
05
3F
3E
3D
01
00
00
3E
00
3B
02
3F
3E
00
00
02
3F
03
3F
3F
3A
02
01
3D
3F
00
01
01
3E
00
3E
00
03
3F
3E
03
00
00
00
03
00
00
00
00
04
3D
04
3D
3F
3E
3F
02
00
01
01
00
01
00
3F
3D
00
3F
01
00
05
02
3C
3E
3F
02
3D
3E
02
01
02
01
3E
3E
3C
3D
08
3F
01
3F
3F
02
02
3E
3C
00
3D
3D
3A
00
3B
01
3F
00
3E
3F
00
00
00
00
01
01
3D
3E
01
3B
01
02
00
3C
3E
3F
00
01
3E
01
3D
07
00
3E
3F
00
01
3E
02
00
3F
03
03
3C
3E
00
05
3E
3E
01
02
00
3D
3E
02
3F
3E
3F
00
00
04
01
01
3F
3D
3C
3D
3F
3F
00
3E
3D
3F
01
03
00
3D
02
3F
01
3F
01
3F
01
01
01
3F
3B
3F
3E
3E
00
3E
01
3D
00
00
3E
3E
00
3C
3F
02
01
00
3F
00
3F
01
3D
03
3D
00
01
03
00
04
3F
02
00
3B
3B
02
02
05
00
01
00
3F
3C
00
3F
3F
01
3D
01
3D
01
3F
01
00
3A
3E
01
3D
3C
02
3F
00
02
04
3C
02
01
3D
02
00
3E
3E
3D
01
3F
3E
01
3D
01
00
3F
3F
3B
3D
00
02
3A
01
3E
3E
3F
03
01
3F
00
3E
3F
3C
00
09
06
3F
3E
01
3F
02
3D
00
02
00
3C
00
03
02
00
00
3F
3F
3E
3F
01
3F
39
3F
39
01
3A
07
00
01
02
3E
02
00
00
03
3B
03
3E
00
3F
3E
3F
3E
02
01
3C
02
01
00
3F
02
3E
03
02
3D
03
00
04
00
07
3E
01
00
3F
00
02
3F
3D
01
00
00
00
3F
00
01
02
3D
02
3E
3F
3D
07
01
3F
01
02
02
3F
3E
3F
01
3F
00
08
00
02
02
3F
3F
03
3E
00
3E
02
3F
02
02
3E
00
3C
01
01
3D
3F
01
3F
01
01
3C
01
3F
02
01
02
3F
3F
01
03
01
02
3E
3C
00
00
3C
3F
3E
02
03
01
3C
03
01
3C
3E
03
3E
02
01
01
02
01
3F
00
00
3C
3D
02
02
01
04
3F
3B
02
00
3D
01
00
02
00
04
00
00
3D
00
01
00
3C
03
00
00
3E
3D
3F
3D
02
3F
3C
00
3F
01
08
01
02
3D
01
3C
3E
3B
01
3D
02
00
3F
00
02
00
01
3E
01
3F
00
3F
03
00
3D
01
01
00
3F
3E
01
01
3F
01
3F
3E
3E
3D
3E
01
01
01
00
01
03
01
3C
00
39
00
3D
03
3F
02
3D
01
00
00
04
01
3D
00
3D
00
03
00
3E
3E
01
3A
3D
3E
01
3F
01
00
3B
3D
01
00
02
3D
03
3D
00
3E
00
3F
01
00
3E
01
3E
3B
01
3F
01
03
00
3A
3E
3E
3D
3F
01
3E
00
03
00
3F
3B
3F
3F
00
3C
02
00
02
3F
00
3E
00
03
3E
3E
02
39
03
03
02
03
00
00
01
3E
3E
01
3E
3F
01
01
3D
00
02
00
3D
00
01
01
00
00
00
3F
02
01
02
3D
00
01
3C
01
00
00
3D
01
03
00
3C
00
02
02
04
3E
3E
38
3F
00
02
3B
04
01
00
00
03
3F
3F
3E
3E
3F
00
3B
0A
04
00
06
01
3F
03
00
00
03
01
3D
00
3F
3F
3E
00
3D
3D
3E
02
01
00
00
03
02
03
01
09
3F
3F
03
3E
03
00
3E
3E
02
04
3E
01
3E
3F
3E
3D
3D
00
03
03
3D
07
3E
01
00
01
38
05
04
3F
00
3E
09
01
0A
3F
3D
0A
02
3F
06
07
02
3F
01
01
3F
3F
3C
03
03
06
39
3F
3E
02
05
3F
00
3D
3F
01
3D
3F
03
04
04
05
02
02
3F
3D
00
01
08
00
3B
3F
3F
3C
3D
3F
02
3E
3B
05
3D
00
3C
3B
3E
03
08
3D
3F
3F
02
00
05
3D
3E
03
01
3B
3A
01
3F
3F
03
03
3F
3D
3C
00
03
3F
3A
3B
3F
3F
0A
03
3E
3D
00
3C
3D
01
00
04
03
03
00
02
3C
00
00
03
01
00
3A
02
06
02
3B
00
01
39
38
00
3F
3F
3D
3D
3B
03
3B
3E
3F
01
3E
00
05
3D
3E
01
3E
3A
3E
00
00
36
00
01
3D
00
3D
3F
3F
3D
36
39
03
3D
06
06
3D
03
01
3C
3F
3D
00
02
01
01
03
02
3C
3F
3D
06
3E
3F
3D
04
06
3F
3C
3F
3E
02
38
3D
3F
01
3C
01
3D
3F
3B
3D
3F
01
3E
3F
04
3E
3F
00
00
3B
38
01
3F
3C
3E
3E
00
3E
3B
02
3F
3E
3D
3E
06
3D
08
01
3B
08
01
3F
00
3F
3D
02
3F
06
3C
00
3D
3F
3E
06
3F
01
3D
02
08
3B
01
00
39
3C
3E
02
3E
00
3E
3F
3C
00
37
3D
3F
04
00
00
03
3E
01
01
06
03
00
36
05
3F
04
05
00
3C
00
3B
3D
3D
3B
39
03
3E
07
02
3A
3E
00
05
3F
02
3F
01
02
01
38
3F
3D
00
00
01
02
02
00
00
08
3E
38
01
3B
08
01
3E
3D
3E
01
3F
3F
00
3C
3C
3F
09
00
01
08
3D
00
05
07
03
06
3F
05
3F
08
04
01
3F
02
3E
3F
3F
01
39
03
39
00
03
3C
3D
3A
0A
3E
03
04
07
02
3D
3B
3F
3C
01
3D
3F
00
00
3D
00
02
3E
3E
3E
04
00
01
03
00
00
3E
00
01
02
00
00
02
3B
04
3F
04
3E
00
09
01
00
3D
01
02
3F
01
3E
3D
01
3E
00
02
00
3C
3F
3D
3F
3F
3E
02
3F
03
3F
3F
00
01
01
3F
02
3D
02
3E
00
01
3E
02
3F
3F
3E
02
04
3D
00
03
39
3C
02
3E
3F
3F
3C
3A
01
3F
3F
00
01
3E
3F
01
3F
3F
03
3D
3E
3C
01
01
00
02
01
01
3E
3D
03
3D
3D
3F
3C
3B
01
04
00
00
04
00
3C
00
3E
3E
00
3F
01
3F
3F
3C
3F
01
01
3F
3E
3E
01
05
07
3E
3E
01
3A
39
3C
3E
00
00
3A
3F
01
3F
3A
3F
01
3F
3E
00
00
3F
01
38
3B
38
00
3E
3F
3E
3F
3B
3D
3B
01
3B
03
3E
3F
3D
03
02
3B
3D
09
03
3D
01
3B
00
01
3D
00
3F
3D
3F
3F
00
04
3F
3E
3F
00
04
05
3D
02
3F
3D
3D
3B
3F
3F
00
3E
3E
02
3D
37
3F
02
3F
3E
01
3F
3F
00
3E
3F
3F
3B
01
3E
3D
3B
3F
3C
3F
3E
3B
3E
3F
3E
3F
3E
00
3D
3D
04
3F
01
02
3E
04
3F
3D
00
3D
01
3E
3F
3D
00
3E
00
3F
00
03
03
3D
3C
01
3D
3C
3F
01
02
00
3D
3E
3C
01
3C
3E
01
00
3E
01
02
00
03
01
04
02
3F
03
3E
3D
3E
3C
3E
00
3D
3E
01
00
00
00
3E
02
01
3E
3F
00
01
00
03
06
3E
00
3E
39
3D
3F
3F
3F
03
3F
00
3F
02
05
00
3E
3C
3C
3F
00
01
3C
3E
3E
3E
01
01
3F
3F
3F
05
02
00
02
3D
03
0B
03
04
02
02
02
3E
01
02
3D
01
3F
3D
3F
3F
01
3B
03
3B
01
00
3C
00
01
02
3D
05
01
02
01
3D
39
39
3D
01
3F
3E
04
3E
3C
3E
02
00
01
3F
02
03
00
3F
02
3E
3E
05
3F
3E
02
00
3F
3C
00
37
01
3F
3F
03
00
01
01
02
01
3B
3F
3D
01
3F
01
3F
3E
03
3E
3C
3E
3F
04
00
01
3C
3F
02
00
02
3F
3E
3F
3D
3D
01
3F
01
3F
3D
05
37
00
00
03
06
03
3C
03
3D
3C
01
01
00
02
3C
3F
00
00
01
3E
00
3F
39
00
3C
00
00
3E
02
3F
00
01
00
00
03
01
05
3E
3F
02
01
3E
3F
3D
03
01
05
02
01
01
02
3E
00
3D
3E
3F
00
00
3F
3F
3B
00
3F
3E
02
00
02
02
04
02
39
3E
3C
3D
3E
03
3F
3F
3A
01
02
3F
3A
00
04
00
3A
00
04
3E
00
3B
01
3E
3F
3F
39
3D
01
00
3A
3D
3E
3C
3D
00
03
3E
00
01
3D
3E
03
01
02
3E
3F
3E
3D
3C
3F
01
3F
01
3C
00
3C
3E
3F
3F
3F
02
04
3E
3A
02
3F
3C
3C
02
03
01
01
02
06
01
3A
00
01
00
3F
00
3E
3F
00
3F
0B
00
3C
3E
00
3C
3F
3D
3A
02
3E
3B
00
01
03
03
3E
00
00
3F
04
01
3F
01
00
02
3F
3D
00
3E
3B
00
3F
03
39
3F
3C
00
3E
01
02
3C
02
01
3F
3E
3F
01
01
01
00
01
3C
3D
3A
3C
00
00
01
3E
3E
3F
01
3F
05
03
00
00
00
3C
00
3F
3F
3F
3D
3E
3C
00
03
3F
3F
01
3C
00
04
00
00
03
3F
3F
00
00
3E
01
39
3C
3F
03
00
00
3F
00
01
02
01
3E
03
3E
3F
01
00
3D
01
3E
3B
02
01
3D
3C
3D
3F
01
3F
04
02
00
05
3E
03
01
03
02
00
02
00
3E
01
03
3C
00
3F
3F
3F
00
00
03
3F
3C
3F
01
3F
00
0A
03
02
3E
3D
3A
3F
3D
01
02
0A
3C
3E
3D
03
02
3D
04
3D
01
03
04
3F
00
3E
00
04
02
3E
01
01
3B
3B
00
3B
03
3F
3D
04
3F
00
3F
01
01
3F
3F
3E
01
00
03
00
3F
3E
3A
00
3E
3F
3F
3E
3D
39
3F
04
3D
3F
3D
3D
00
3C
3F
3F
00
3D
3F
00
02
3D
00
3E
3F
3F
03
3F
3A
00
02
3F
02
3F
3D
3D
3C
3F
00
3F
3D
02
00
3D
00
3C
3D
01
00
3F
01
00
00
3E
3F
3F
01
05
3E
00
04
3C
3E
06
3E
01
00
03
00
02
01
00
00
3D
3F
3F
3C
00
01
3C
04
00
3B
3D
3E
3C
3F
00
03
02
04
3A
3D
3E
3F
3E
03
00
00
3A
3F
00
00
3E
01
03
3E
01
00
03
3F
01
00
02
00
3D
00
3C
3E
3E
01
3F
3D
3D
03
03
01
08
03
02
01
3C
3F
03
00
02
3B
3F
3C
3E
3D
01
02
3E
02
00
00
3C
3F
3C
3F
3F
3F
02
00
3E
3E
3F
3E
3F
00
04
00
3D
00
3C
01
39
00
06
3F
3F
02
3F
00
00
00
04
3C
3D
00
3D
3A
01
3F
39
3F
01
01
3F
01
04
01
01
01
03
3F
01
02
01
00
00
3E
3B
3E
03
01
3A
04
3D
3F
3F
3D
3E
00
3C
01
00
3C
3D
3F
01
3F
00
3F
04
02
3D
3F
3B
00
3D
00
01
3F
3D
01
00
3F
00
3E
02
01
3F
3C
01
3D
3E
02
3D
3F
3C
3F
3E
3F
01
00
3F
01
02
3F
02
3F
00
3D
00
3E
3E
01
3F
01
3A
00
3F
00
04
3D
02
3E
01
01
02
3C
00
3D
01
02
03
3D
05
3F
3D
03
3E
04
02
3F
02
01
3A
01
00
02
01
3E
01
04
06
01
01
04
3F
01
03
02
3D
3E
00
3D
3C
3E
00
3F
00
3C
01
3D
00
37
03
05
3E
3D
3E
3C
3C
3F
3F
00
07
02
3D
01
3D
04
3D
01
3F
00
04
03
3B
3E
00
3A
01
00
00
02
02
3E
3E
02
3F
03
3E
3C
3E
00
02
3F
01
01
3C
3F
00
02
02
3F
3D
03
00
00
00
02
02
02
3F
01
3F
3A
04
3E
00
3D
02
01
3F
02
02
3E
01
02
00
3D
3D
3E
02
01
04
01
3E
3C
00
02
3F
3F
00
3B
3F
00
3E
01
00
00
00
02
3E
00
3D
02
01
3D
3F
3F
01
01
3B
01
3E
01
04
3F
3E
05
00
3E
3E
00
02
3F
01
00
00
3F
02
3D
3E
3F
3E
3E
00
01
00
01
01
00
01
3B
3F
3F
02
3F
05
01
39
3E
00
02
3C
3F
04
05
3E
3F
02
00
3B
3E
06
3F
00
3F
00
04
3F
3F
3D
3F
3D
3B
3B
3F
3C
02
01
00
3F
01
3F
00
00
00
02
01
3B
3D
00
3D
03
02
3F
3D
3E
3E
01
00
3C
00
01
07
00
3E
00
00
01
00
00
00
3E
02
01
3D
3F
01
05
01
3C
01
00
02
3F
3D
00
00
01
00
3F
01
00
01
3F
00
3E
3E
00
3D
3E
02
3F
3C
01
03
01
3F
3D
02
00
01
3F
00
3F
01
01
00
3F
3C
3E
3D
00
3F
3C
01
3D
3D
00
3C
3D
3E
3D
3F
02
3F
3E
3F
3F
3F
02
3E
02
00
00
00
02
01
01
00
03
00
3D
3C
00
01
02
01
00
00
3F
3A
01
3E
01
04
3C
01
3D
01
3E
01
00
3B
3C
00
3F
3D
02
01
01
02
02
3F
02
01
3E
02
3C
3E
3F
3B
01
3E
3F
02
3E
01
02
3E
00
3A
3D
03
05
3B
01
3D
3F
01
00
00
05
00
00
3E
3E
3F
03
00
3F
00
02
00
03
3C
02
03
3F
3F
01
02
3D
00
3F
00
3F
00
3F
00
01
39
3E
3D
02
3C
02
02
01
00
3E
02
3E
3F
00
3D
04
00
3F
3F
00
3E
3F
01
3F
3C
06
02
3E
01
02
3C
03
3E
3E
06
03
03
3D
07
3F
01
01
3E
01
00
02
3B
02
01
3E
3D
3E
03
02
01
3E
03
3D
3E
3E
05
01
3E
00
01
3F
3F
3E
3E
3E
00
00
04
3D
05
01
3F
3E
02
3F
00
3C
3F
02
06
01
3C
01
3A
01
01
3C
01
02
02
00
3F
3C
02
00
02
3E
04
3F
01
01
3D
00
01
3E
3C
3F
01
3B
3E
3C
04
04
00
3D
08
01
3C
3F
05
00
3F
00
3F
00
00
04
3E
3E
3C
3B
01
03
04
02
3E
3E
00
02
3B
02
00
02
05
03
3F
01
3D
01
00
01
3F
06
02
3E
3C
3D
01
3E
3F
3E
3C
01
3D
02
05
01
00
3D
00
3E
3D
3E
3F
3E
03
01
3E
00
08
3E
00
3F
02
3C
3F
3C
02
3F
3D
05
01
00
00
3E
3F
02
00
02
3F
3D
3D
00
3F
03
00
01
04
01
00
00
3D
01
3A
03
3F
09
00
01
3B
00
01
3E
02
3A
3D
00
3E
01
01
3F
3F
3D
01
3C
3B
02
00
00
05
05
3A
3C
06
3E
00
3D
03
3B
3F
3A
3F
3E
3F
01
3F
3F
00
3E
00
02
00
02
3F
38
3E
03
3F
01
3F
3D
04
03
3D
3F
3A
01
3E
01
3B
07
00
01
3E
01
00
00
00
3A
00
00
3A
02
01
00
03
3E
3E
01
3A
3E
3E
01
04
02
01
3E
04
01
3F
3E
3E
3F
00
3F
3F
3E
00
03
00
3F
3F
02
3E
3E
03
3E
3F
3A
00
07
3F
3C
01
03
05
03
3F
3E
37
3E
03
05
3D
02
02
02
3F
3E
00
03
3E
3A
3F
3E
3C
04
3F
00
02
03
3D
03
3E
03
01
04
00
03
3D
3C
02
02
3E
3D
01
04
00
3F
00
3F
04
04
3E
03
00
01
00
00
02
3F
3D
3E
00
09
00

